001111110111001110000000001000
000001111110110110000001000111
000111111110001111000111111110
000001110111111000001110111001
110001000000000110000001000111
111111000000001000111110110000
111111111111000111000111111000
111111000000110110000000001110
000000110000111000110111000111
000000000000000000000000000000
000000000111111110000001000000
111001111001001000111110000111
000000000000000000000000000000
111111110001111111111110001000
001000000111111111111111001110
000110000001000000001000111111
000000000111111111000000111111
111000001111001111000111110111
001111000001000110111111111001
000110001000110000111111110000
111000111001000110001000110000
111111110000000000111000001001
001000110111000110110000001111
001001111111110000000000110000
000001111111001110000110111110
110110111110000110001000000001
000000001110000000111000000000
000000000111000111001111001111
000001001000111111111111111001
001000001000111000111000111001
000110001111000001110000111111
111111000001111111110001111000
001000110111111000000001001111
001000111111111000000111101001
000000111001000001110111110000
111001111110000000111111111000
111111001110000000001000001110
111000000000111110001111110111
000111010110111000000111000111
111111001111001001111111000111
001110000111111111001111000111
000000000000000000000000000000
111001001111111001111000000110
111110001000000111110110000001
111111111000000001110110001111
111110000111001111000111000111
111000000110000001000111000110
000000001000001111000111111111
000000000111111111111001110111
001001001000110000111001110110
111000000001000001111000110111
000000110001111111111000000001
110000001111000110000001111000
000111111000111111000000000111
001110001111001000111111000110
111111111111111001111001111000
000000000111000001111001110001
000111110111000001111111000000
001001110110111001001111110111
000111111000111111000000001000
110001111111111000001000111001
000000000000001110001110111000
111110001111111001000111000001
111001111001111000111001111000
001000000110110000000000111000
001000110000000001111110000111
111000101001001110111001111000
001001000000000000111110000110
111000111000000111000111000001
111000000000111111101001001001
001111001110111111111000111111
110001110001001000110000001000
001111110111001000111001110111
001111111111110001101110001110
111111000110000111001001000111
111111000001000000101111001111
001111000110111001000000111000
000110001111000111110001001001
111000111111110111001000001000
110001000110111000110000001000
110111111111000000001001000110
110000110001000000000111001001
110111000000000001001000000111
000000000000000000000000000000
