00000000000000000000000000000000000000000000000000000000000000000000000000000000000000000000000000000000000000000000000000000000000000000000000000000000000000000000000000000000000000000000000000000000000000000000000000000000000000000000000000000000000000000000111000001111000111000000001000000000000000000001111001001000001000111001001001111001000001000000001001000000001001000111000000111000000111111001000111001000000000000000000111001000111001000000000111111001111000000000000001000000111000000000000000111000
00000000000000000000000000000000000000000000000000000000000000000000000000000000000000000000000000000000000000000000000000000000000000000000000000000000000000000000000000000000000000000000000000000000000000000000000000000000000000000000000000000000000000000000000001000001001000000000111001111111001000001111001001001111010000000010000001001001010001111111111001001000111001001000000011111111000000010111001111111000110001001001000001111010111000001000000000101000110111000000001000111001111111111000000111000001
00000000000000000000000000000000000000000000000000000000000000000000000000000000000000000000000000000000000000000000000000000000000000000000000000000000000000000000000000000000000000000000000000000000000000000000000000000000000000000000000000000000000000000000000111000111000000001000000000001000000000000000000000001000000000111000000000000000000000000000000111000000001111111001111000000000000000000000000000000000000000000000000000000000000001000000000000000000111000001000000000000111000111000000000000000001
00000000000000000000000000000000000000000000000000000000000000000000000000000000000000000000000000000000000000000000000000000000000000000000000000000000000000000000000000000000000000000000000000000000000000000000000000000000000000000000000000000000000000000000000000001110011111000111001000000110001111000000010111111111010001000001110010000001000001111001111000000111000000001001000010000111001000001000000000101111111000000001000111110001001000111110000110111111111110010000111000111001111000111001001110111110
00000000000000000000000000000000000000000000000000000000000000000000000000000000000000000000000000000000000000000000000000000000000000000000000000000000000000000000000000000000000000000000000000000000000000000000000000000000000000000000000000000000000000000000111111000000110110000001111000110000000000001000111001111111111001001110000101110010000000110010001110111000000000010000001001111101001001000010111010001111010010010000101000001110111111001111000001000000111110000111000000000111101000011110111001111000
00000000000000000000000000000000000000000000000000000000000000000000000000000000000000000000000000000000000000000000000000000000000000000000000000000000000000000000000000000000000000000000000000000000000000000000000000000000000000000000000000000000000000000000111000000111000111010001001000111111000001111001110000101000101000010110011100000000110001001001111001111111001001010000000001000001010001000011111111000111010001000110001001010110111111010000001111001000000010000111000011000111011000000000000000001000
00000000000000000000000000000000000000000000000000000000000000000000000000000000000000000000000000000000000000000000000000000000000000000000000000000000000000000000000000000000000000000000000000000000000000000000000000000000000000000000000000000000000000000000111000111000000111000000001001000111000111000000000000111000001000000000000000000000000111000000111001000000000111000000000000000000000001001000111000000000000000111000000000000111000000000000000000111000000000001000000001000001000000000000000001000001
00000000000000000000000000000000000000000000000000000000000000000000000000000000000000000000000000000000000000000000000000000000000000000000000000000000000000000000000000000000000000000000000000000000000000000000000000000000000000000000000000000000000000000000000001111000111000101001110111000001111000111101001110000000000000010000110001000110111001001000110000001000000001010000000001111000001001000010001001000111111001000000000000000001001001111001111000001001110111101000111000000111000000000000001001111001
00000000000000000000000000000000000000000000000000000000000000000000000000000000000000000000000000000000000000000000000000000000000000000000000000000000000000000000000000000000000000000000000000000000000000000000000000000000000000000000000000000000000000000000111000000000000111111001111000000000000001101111001000001001111000001001000001111000111111111000000110001001111001000111000000000001000000000001001000110111101001111111001111010010010001111111000001010001000000110111001111000001111001000111000001000001
00000000000000000000000000000000000000000000000000000000000000000000000000000000000000000000000000000000000000000000000000000000000000000000000000000000000000000000000000000000000000000000000000000000000000000000000000000000000000000000000000000000000000000000111110001000000001000000111111100001001001000011110010110001000110000010011000111010111001001010001000000111111110000000010111000000110110111111010110010010010110000001000001000001001101010000000010001000111111000000001011000111001010001001010001010011
00000000000000000000000000000000000000000000000000000000000000000000000000000000000000000000000000000000000000000000000000000000000000000000000000000000000000000000000000000000000000000000000000000000000000000000000000000000000000000000000000000000000000000000000111111000110111010000111000000010001001111111010010001000000110001110110000000001001010001000111110010000001000001111010111000111000111101111000000111001000000000111000001000001001111001110000001010001111101111000001000111111111001000000110001001001
00000000000000000000000000000000000000000000000000000000000000000000000000000000000000000000000000000000000000000000000000000000000000000000000000000000000000000000000000000000000000000000000000000000000000000000000000000000000000000000000000000000000000000000111111000101111111001011001111001001110001110110001110010010111000001111111001111001101000111111110000001010000111001000111000000011001010111000110000111101010000010001001000111110001001101110000011111010001001111111111101000000001111111110110111101110
00000000000000000000000000000000000000000000000000000000000000000000000000000000000000000000000000000000000000000000000000000000000000000000000000000000000000000000000000000000000000000000000000000000000000000000000000000000000000000000000000000000000000000000000000001110001000001001000111001101001000010001000111000111011010001001001001000001001111000001001000110000000111101000000001000111001001010000111111000000000111000001111111111000000000000001111000000001001000001000000001111000000000000001000100000101
00000000000000000000000000000000000000000000000000000000000000000000000000000000000000000000000000000000000000000000000000000000000000000000000000000000000000000000000000000000000000000000000000000000000000000000000000000000000000000000000000000000000000000000000000001000010001000000001111000010010000001000000000001111000111110111010000001000000111001111000000010001000010111000111001111111000110111001010000001001111111111001000111000000001000010111111000000001000010010001010000000000111000111111000000001001
00000000000000000000000000000000000000000000000000000000000000000000000000000000000000000000000000000000000000000000000000000000000000000000000000000000000000000000000000000000000000000000000000000000000000000000000000000000000000000000000000000000000000000000111111010110001010000110010110001111000111001001010111110111010010000001000111000110101000001010001000111111001111110001010001111111010010001000001111000001001111001010010000111001001110000111000000111001000010001111001110111010110000001000001111111001
00000000000000000000000000000000000000000000000000000000000000000000000000000000000000000000000000000000000000000000000000000000000000000000000000000000000000000000000000000000000000000000000000000000000000000000000000000000000000000000000000000000000000000000000000010101111111110111111101001000001111110000010000010111010001000001000001000110111001111111001000111000110000111010111000111110110110001101111001110111001000000001001111101001000001111000000000110000000000001000010111000000111000001000001000000111
00000000000000000000000000000000000000000000000000000000000000000000000000000000000000000000000000000000000000000000000000000000000000000000000000000000000000000000000000000000000000000000000000000000000000000000000000000000000000000000000000000000000000000000000000000000111000010000000000111000111001000111111000111000111001001111111000110001111001110001000110010000001111000111000000000001000001000001110111110000001111000111000010001000110000110001000111000001001111001111110000111111111111000000111111000000
00000000000000000000000000000000000000000000000000000000000000000000000000000000000000000000000000000000000000000000000000000000000000000000000000000000000000000000000000000000000000000000000000000000000000000000000000000000000000000000000000000000000000000000000001000111000001010001001001001111000001001110001001001000001111110101010000000001010110010000001001010111001111101000000000000001111111110001111000000001011111000111111111111101111110000000001001110111010000001000001001000000111111000001101101000000
00000000000000000000000000000000000000000000000000000000000000000000000000000000000000000000000000000000000000000000000000000000000000000000000000000000000000000000000000000000000000000000000000000000000000000000000000000000000000000000000000000000000000000000000000111000111110000001110111111000000000110110010111010001001000000000110001010110001000000111110000010000001001111111110001000001001010010000000111000101101001001000000000000000001000000111001111111001000000111000111110000001110111111001001111001110
00000000000000000000000000000000000000000000000000000000000000000000000000000000000000000000000000000000000000000000000000000000000000000000000000000000000000000000000000000000000000000000000000000000000000000000000000000000000000000000000000000000000000000000000010111010000001111001000001111101110111000000110111110111110000000010001000000001000111001000000101111000110110110110111000000010000000001010111110001000000111001001001000010000111111111010001000111000000001111000110000111110001001111001001111111111
00000000000000000000000000000000000000000000000000000000000000000000000000000000000000000000000000000000000000000000000000000000000000000000000000000000000000000000000000000000000000000000000000000000000000000000000000000000000000000000000000000000000000000000111001110001111000111001111000001001111000111110000110000000111010001111000001000111111000000111111010111001000000001001111111000010111010000010110000111111001000000000001000010000001001111001001010001001000110000001000000000111010111000000000000110000
00000000000000000000000000000000000000000000000000000000000000000000000000000000000000000000000000000000000000000000000000000000000000000000000000000000000000000000000000000000000000000000000000000000000000000000000000000000000000000000000000000000000000000000000110001000110110111001000000110001000001000111001010111111001000001111001000111000111000110111001010111111111000000000001111111110000000111111111000000110010000010001111001111000101111000110001010000111001101001111001111111001000001001000110000110001
00000000000000000000000000000000000000000000000000000000000000000000000000000000000000000000000000000000000000000000000000000000000000000000000000000000000000000000000000000000000000000000000000000000000000000000000000000000000000000000000000000000000000000000000111001111010000001010111111001111001001001001010111001011000000110001000010000001111111000000010111000110111001110001000111000111110111000111000000001001111000001001001000111001001000001000111000110000110001000000111111111001110000111000010111001110
00000000000000000000000000000000000000000000000000000000000000000000000000000000000000000000000000000000000000000000000000000000000000000000000000000000000000000000000000000000000000000000000000000000000000000000000000000000000000000000000000000000000000000000000000000111000001010001000111000000110001001000000111111000000000000000001000000001111000000000010001010111111001111001010000000001001000111000111111010111000000001010000001000111001000001000001001111010000111000001000001000001000001001111010001000001
00000000000000000000000000000000000000000000000000000000000000000000000000000000000000000000000000000000000000000000000000000000000000000000000000000000000000000000000000000000000000000000000000000000000000000000000000000000000000000000000000000000000000000000001000000000000000000000111000000000000000000111000000001000000000000000000001000000001001000000000000111000000000000000111001111000000000000000001000000001001000000000000111111000001001001000000000000000000000000000111001000111001111000001000000001000
00000000000000000000000000000000000000000000000000000000000000000000000000000000000000000000000000000000000000000000000000000000000000000000000000000000000000000000000000000000000000000000000000000000000000000000000000000000000000000000000000000000000000000000000000001000000111000010001000001000111001000000000000001001000001101001111000001010010100111000001111000001110000101111001000000000000111111110000001001000111010000001110000111110001000000111000111101000111001111111101001111000000111000111000000000111
00000000000000000000000000000000000000000000000000000000000000000000000000000000000000000000000000000000000000000000000000000000000000000000000000000000000000000000000000000000000000000000000000000000000000000000000000000000000000000000000000000000000000000000000001001000111111000000110001110101111001000000000010111111001000010000001111110000000111010011010001000111000110111111000001000001000000000001110111001000010110111000101110010110111000111011001001111001011111001000111001000000111000000001000110111000
00000000000000000000000000000000000000000000000000000000000000000000000000000000000000000000000000000000000000000000000000000000000000000000000000000000000000000000000000000000000000000000000000000000000000000000000000000000000000000000000000000000000000000000001001001001000111000000000000000000000000000000000000000000001000000000000111000111111111000000001001000000000111000111001000000000111111000111000000000111001000000111000111001000000000001000000001000111111001001001000000000000111001000000111000111001
00000000000000000000000000000000000000000000000000000000000000000000000000000000000000000000000000000000000000000000000000000000000000000000000000000000000000000000000000000000000000000000000000000000000000000000000000000000000000000000000000000000000000000000000000000000000001000000000001001000111000000111111000000111000000000000001000001111111000000111111000000000000111001001001111000000000000000000000000000000111000000000001000111001000001000000000000000111000000001001001000000000000001000000000000001000
00000000000000000000000000000000000000000000000000000000000000000000000000000000000000000000000000000000000000000000000000000000000000000000000000000000000000000000000000000000000000000000000000000000000000000000000000000000000000000000000000000000000000000000000001000001001001111000000000000001001111111000111001001000000101010001001001000111110111001100000111110000111111001110110110000001101100000000001001111001111110101000001111001010000000000001110111001000000000000111001111111000000000001001010001001000
00000000000000000000000000000000000000000000000000000000000000000000000000000000000000000000000000000000000000000000000000000000000000000000000000000000000000000000000000000000000000000000000000000000000000000000000000000000000000000000000000000000000000000000111111110110000111010111011111000111001101110111000001110111001001000000111111001111000001000010110111000000010001000001110010000111001010000010010111110000110000110111000001111001111000010110001100010001111000110111000111111111000000000001111000000000
00000000000000000000000000000000000000000000000000000000000000000000000000000000000000000000000000000000000000000000000000000000000000000000000000000000000000000000000000000000000000000000000000000000000000000000000000000000000000000000000000000000000000000000000111001000111111110111010000000000110001000000111000001001111000001111001110111110101000111001001000010010001000111110110111000001000001000001111000000110001000000001001111000000001001110001001001000000001000001000000000111000010001111111110000001110
00000000000000000000000000000000000000000000000000000000000000000000000000000000000000000000000000000000000000000000000000000000000000000000000000000000000000000000000000000000000000000000000000000000000000000000000000000000000000000000000000000000000000000000000000000001000111001111110000111111111001000000000000111001110001110000000111001011010000000001000110001111001001000111001011111111001001000000001110000001001001001001111010111111111111001110001010001010111111000000111001000110111111001111110000001000
00000000000000000000000000000000000000000000000000000000000000000000000000000000000000000000000000000000000000000000000000000000000000000000000000000000000000000000000000000000000000000000000000000000000000000000000000000000000000000000000000000000000000000000111110000111000111000110011111000111001111111000010010001000010110111110001000110110110111111111010000000101001110111001000000001101110110010111001001111111010110000111001000111001000001000000110000000001001001010000010001111001000000001000110000000111
00000000000000000000000000000000000000000000000000000000000000000000000000000000000000000000000000000000000000000000000000000000000000000000000000000000000000000000000000000000000000000000000000000000000000000000000000000000000000000000000000000000000000000000000111111110101101111001110110000010111010110001001110000000111001001111111001110001111000000001110001000000000000001001010111000010001010110111111010001000000010001000111000111111000111000101000000001001000000101111000110000000110001001110000001111001
00000000000000000000000000000000000000000000000000000000000000000000000000000000000000000000000000000000000000000000000000000000000000000000000000000000000000000000000000000000000000000000000000000000000000000000000000000000000000000000000000000000000000000000111010000111001110110001001111110111000111001001001000000111001001001010111000001000000000111000010001000110001000110111001001000111001001001000010001010110001000000000110000000001000111001001000001001001010110001000001110000001111111010111010000000111
00000000000000000000000000000000000000000000000000000000000000000000000000000000000000000000000000000000000000000000000000000000000000000000000000000000000000000000000000000000000000000000000000000000000000000000000000000000000000000000000000000000000000000000000000000010001001010111111000111111001111001010111010110000000000010000000111110001001001000010010000111111111110001000001000111000111000001001111111111000000101111001000111001001110111000010111000000001000000001111111000111111000000000001001000000000
00000000000000000000000000000000000000000000000000000000000000000000000000000000000000000000000000000000000000000000000000000000000000000000000000000000000000000000000000000000000000000000000000000000000000000000000000000000000000000000000000000000000000000000000000000000000000000000000000111000001000000111000000000000000111111111111000001111111001000000000001000001000000111000111001000000111000000001000111000000001000000000000000000001111000000001000000000000111000001000001000000000001000000000000111000000
00000000000000000000000000000000000000000000000000000000000000000000000000000000000000000000000000000000000000000000000000000000000000000000000000000000000000000000000000000000000000000000000000000000000000000000000000000000000000000000000000000000000000000000000000000000000111000000000111000000001000001000000000000000000000000000000000000111001001000000001001000000001000000111000001001000111001000000000000111000001000111001111000001000000001000111000000000000111000000000000000111000111111001111000001000111
00000000000000000000000000000000000000000000000000000000000000000000000000000000000000000000000000000000000000000000000000000000000000000000000000000000000000000000000000000000000000000000000000000000000000000000000000000000000000000000000000000000000000000000000001111010110110101000000000000110001001001111111110001000001010110111110110000011010000000010000010000111110001001001111011000111001010111001110001111110010011001000110000110100111110001111010000111000110110111000111001000111001000010111101110110110
00000000000000000000000000000000000000000000000000000000000000000000000000000000000000000000000000000000000000000000000000000000000000000000000000000000000000000000000000000000000000000000000000000000000000000000000000000000000000000000000000000000000000000000000000001010111000010000000001110000000000000110110010110000000001000000001110110010001111001011111110011001001000111110111000111110010001000010000110111010110000000111000001000000111110000001000111001010111000110111001001111000001111111001110000001001
00000000000000000000000000000000000000000000000000000000000000000000000000000000000000000000000000000000000000000000000000000000000000000000000000000000000000000000000000000000000000000000000000000000000000000000000000000000000000000000000000000000000000000000000111001110001111000111000111101000010000001010111001000111000001001001111110111010110000101010010111111001001000000010010001000110000010001111000000000110001001001001111000001111000110000111010001001001110110010000000000000111101001010110010000000001
00000000000000000000000000000000000000000000000000000000000000000000000000000000000000000000000000000000000000000000000000000000000000000000000000000000000000000000000000000000000000000000000000000000000000000000000000000000000000000000000000000000000000000000000111111001111000010000000000111010001001111001000000000001110110000110001001111000111111000110111001111110110111000000111000111011110001000001110000111001001001110111000000000110111000111000110000101000000001000111111000000111001000110000111000001001
00000000000000000000000000000000000000000000000000000000000000000000000000000000000000000000000000000000000000000000000000000000000000000000000000000000000000000000000000000000000000000000000000000000000000000000000000000000000000000000000000000000000000000000000101001101001111000110001110000000010111111000010010000001001111001000000000110110110001110111000111001111001000001011001010111100000110000111001001111111001111000001111111000001001111000101110001001111001000001000001111001001111000001001110000000111
00000000000000000000000000000000000000000000000000000000000000000000000000000000000000000000000000000000000000000000000000000000000000000000000000000000000000000000000000000000000000000000000000000000000000000000000000000000000000000000000000000000000000000000000001001001000011010010001000010110000000001000111110001000111010000000000000010010010111010000001001111000000001101111010000000010000000000001110000010111000001001111001001001101110110000001000001000000001000000111000111000000101111111111000111110000
00000000000000000000000000000000000000000000000000000000000000000000000000000000000000000000000000000000000000000000000000000000000000000000000000000000000000000000000000000000000000000000000000000000000000000000000000000000000000000000000000000000000000000000111111111001011111000101110000111110001110000111010001000000001111000000000000111001010001000011000001111111001001010111110001000110000111001111010000110010001000110000000001111011001111111000110000001001001001001000001010111000001111000010111111001111
00000000000000000000000000000000000000000000000000000000000000000000000000000000000000000000000000000000000000000000000000000000000000000000000000000000000000000000000000000000000000000000000000000000000000000000000000000000000000000000000000000000000000000000000000000000001000000001000000000000000111000000111000000000000000000000000000000000000000001000000000000000000000001000111000000001000001111000000000000000001000000000111111001000000000001000000000000001000000000000000111000000000000111000000000000111
00000000000000000000000000000000000000000000000000000000000000000000000000000000000000000000000000000000000000000000000000000000000000000000000000000000000000000000000000000000000000000000000000000000000000000000000000000000000000000000000000000000000000000000111000001001001000110110110000000111000111001000000010111000010110001001001001111001000001000001001000000000111111001000000000000000111000010000001000101001010110110000001111000010001111111001111111000010001000000000001001000001001111111010001111001000
00000000000000000000000000000000000000000000000000000000000000000000000000000000000000000000000000000000000000000000000000000000000000000000000000000000000000000000000000000000000000000000000000000000000000000000000000000000000000000000000000000000000000000000000111010110111001110010001000111000111011111000111111010001111010000001001000111000111111000111001000001000000111101110000111111010000000001111111001001111000000001000000111000111000001111000000000110000001000000111000111000000000111000110001111000000
00000000000000000000000000000000000000000000000000000000000000000000000000000000000000000000000000000000000000000000000000000000000000000000000000000000000000000000000000000000000000000000000000000000000000000000000000000000000000000000000000000000000000000000111000111010001001001000000001000110111111001111111001101000000000111111111000111000001001001011000000001000000111001110000010000000000000111010001111110001001111111111001000000111111001111001111110111001111000000000111010111110001111110001111110001000
00000000000000000000000000000000000000000000000000000000000000000000000000000000000000000000000000000000000000000000000000000000000000000000000000000000000000000000000000000000000000000000000000000000000000000000000000000000000000000000000000000000000000000000111000000001000000000000111000000001000001000000000000000111000000000000000000001000000000000000000000000000000000001000000000111000000000111000001111000001000000111000000000000000001000000000001001000001000000111111000000000001000000000000111000000000
00000000000000000000000000000000000000000000000000000000000000000000000000000000000000000000000000000000000000000000000000000000000000000000000000000000000000000000000000000000000000000000000000000000000000000000000000000000000000000000000000000000000000000000111001001000111111101001111001001001110001111111000000000001000111111000111001000001001110001111110001000001000000110110101000000001111000001110000001000010111001111000000000111000001001001000111101111000111001110111111000000000000000111001001111001111
00000000000000000000000000000000000000000000000000000000000000000000000000000000000000000000000000000000000000000000000000000000000000000000000000000000000000000000000000000000000000000000000000000000000000000000000000000000000000000000000000000000000000000000111001001000000001000111011111001110010111110111000111010111001000101000000000001000001110000110110000000000111001111000000000111111111000000000110000111111111001110111000111111000000001001101001110100110111010000111000111000010001111000000111111000111
00000000000000000000000000000000000000000000000000000000000000000000000000000000000000000000000000000000000000000000000000000000000000000000000000000000000000000000000000000000000000000000000000000000000000000000000000000000000000000000000000000000000000000000000110000111001000000000110000110001111010001000000000111000001000010001000000110000100111000000001111000001000110000000000000000001000000001000001111000110111111111000001000000010111000101000000000001000000000000000001110000111000000001001000001111000
00000000000000000000000000000000000000000000000000000000000000000000000000000000000000000000000000000000000000000000000000000000000000000000000000000000000000000000000000000000000000000000000000000000000000000000000000000000000000000000000000000000000000000000111101000110111110011000111111000111000000001001000001000001000000110000000110111001110110111010001110001010000110101111010111111111111000110000000000010111111110000000111111001000010001111111000001000001111000111000000001000000111111001001010110001111
00000000000000000000000000000000000000000000000000000000000000000000000000000000000000000000000000000000000000000000000000000000000000000000000000000000000000000000000000000000000000000000000000000000000000000000000000000000000000000000000000000000000000000000111000111001000111001111001000001000000000001111000010010000000000000000101001001001001000111110111001000000001001110001001001000111000110111110000010111000110010000001000000110001000000011101111000000000110000000000001110111000110001000111000111001010
00000000000000000000000000000000000000000000000000000000000000000000000000000000000000000000000000000000000000000000000000000000000000000000000000000000000000000000000000000000000000000000000000000000000000000000000000000000000000000000000000000000000000000000000000110001000111110000111000111001000000000001000010001010001101001111000001111000001001000110000111000001110111111111000111111001101101110110001000000001000000111000111111001010001000001111000001001001000000111000001000000111001001111001001001001001
00000000000000000000000000000000000000000000000000000000000000000000000000000000000000000000000000000000000000000000000000000000000000000000000000000000000000000000000000000000000000000000000000000000000000000000000000000000000000000000000000000000000000000000111001000000111111001001000111010010111010110110000111001001101000001101000000000110001001111001101001000111000111000001000000111010000010110000111000111001001001001111001001000000111111000111000010000001000000111111111001000010000000001101110000110000
00000000000000000000000000000000000000000000000000000000000000000000000000000000000000000000000000000000000000000000000000000000000000000000000000000000000000000000000000000000000000000000000000000000000000000000000000000000000000000000000000000000000000000000000000001000111000110001110000110001000000111110010001000001000000010001000001110000000001000001001010000000000001001111110111000001000111000001111001110000001001111111111111111010001000111001111110111001000000111000000001000001001111000000001001000000
00000000000000000000000000000000000000000000000000000000000000000000000000000000000000000000000000000000000000000000000000000000000000000000000000000000000000000000000000000000000000000000000000000000000000000000000000000000000000000000000000000000000000000000001000000000111001001000000000000000000000111000111000000000111111000000000001000000111000000000000000000000000000000000000000111000000000111000000111000000111000000000000000001000000000111000000000000000001001111000000111000111000111000000000000000000
00000000000000000000000000000000000000000000000000000000000000000000000000000000000000000000000000000000000000000000000000000000000000000000000000000000000000000000000000000000000000000000000000000000000000000000000000000000000000000000000000000000000000000000000010000001111000010000001001000001000000110000110000111000111000010000000111111111111010000000110110111111001000010010001110000000001000000010110000000001111000000110000000000000111111001001010111001001111000110000001000000111011010000111111001111001
00000000000000000000000000000000000000000000000000000000000000000000000000000000000000000000000000000000000000000000000000000000000000000000000000000000000000000000000000000000000000000000000000000000000000000000000000000000000000000000000000000000000000000000000111000111000111111110000001000000000001000000010001001111000000000110001000110000000001111011111111001000001001010111000001000000001001000000000001111000001000000111111000000000000110000111010111000000111111111111000001000111111001000000101000001111
00000000000000000000000000000000000000000000000000000000000000000000000000000000000000000000000000000000000000000000000000000000000000000000000000000000000000000000000000000000000000000000000000000000000000000000000000000000000000000000000000000000000000000000111010001001010010111111001111010001001110111000000110001110000000101010001000000111001111000111001010000110111001001000000001000101111101111111001001111000001000111111000111101000001001010001111000111000000000001000001000000001111111111001010000110110
00000000000000000000000000000000000000000000000000000000000000000000000000000000000000000000000000000000000000000000000000000000000000000000000000000000000000000000000000000000000000000000000000000000000000000000000000000000000000000000000000000000000000000000000001000000000000111000001000000000000000000000000000111000000000001000111111001000000001000000000000000000000000001000000001000000001000001000000000000000000111000000000001001111000111000000000000000001000000000000000001001000001000000000111111001111
00000000000000000000000000000000000000000000000000000000000000000000000000000000000000000000000000000000000000000000000000000000000000000000000000000000000000000000000000000000000000000000000000000000000000000000000000000000000000000000000000000000000000000000000000101000111111001101000001111111000001000111110001110111001001000110000110001001000010000010111001001000010010001001111010111111010001111000000000111000001010001000001001111111110111000111001000110001000000110000000000111000001111010000111110000001
00000000000000000000000000000000000000000000000000000000000000000000000000000000000000000000000000000000000000000000000000000000000000000000000000000000000000000000000000000000000000000000000000000000000000000000000000000000000000000000000000000000000000000000111110000001001111111111111001110001010000000000000001000000000000001001001000110001001111001000001111000000000111111000001111111110110110110111000001001000001110001001000010000001010110000000000010111000111110000000001000000111111111001000010000001001
00000000000000000000000000000000000000000000000000000000000000000000000000000000000000000000000000000000000000000000000000000000000000000000000000000000000000000000000000000000000000000000000000000000000000000000000000000000000000000000000000000000000000000000000000001000111000111001000000000000000111000001000000000000000000000000000000000000001111111000000000000000000000000000000000111111001001111000000000001000001000000000111111000001000000000000001000001001001000001000000000111000000111000000000111000000
00000000000000000000000000000000000000000000000000000000000000000000000000000000000000000000000000000000000000000000000000000000000000000000000000000000000000000000000000000000000000000000000000000000000000000000000000000000000000000000000000000000000000000000000000000000000000000000111111000111000000000000001001000000000111000000000000000001000000001000001000000000000001000000000111000000001001001000111000000000001000000000000001000000000111000000000001111000111000111000000000001111001001000111000111000000
00000000000000000000000000000000000000000000000000000000000000000000000000000000000000000000000000000000000000000000000000000000000000000000000000000000000000000000000000000000000000000000000000000000000000000000000000000000000000000000000000000000000000000000000010001001000010010000010001001111111110000000110111110101110001010010000000001111110001000111111111110101001111110000010110111001001001001010110000000110110000000000001000010000110111001001111000010000000001001111000110000000010010010000000111110001
00000000000000000000000000000000000000000000000000000000000000000000000000000000000000000000000000000000000000000000000000000000000000000000000000000000000000000000000000000000000000000000000000000000000000000000000000000000000000000000000000000000000000000000111010001001001000111000000000110000000100000000000111111110001000011010111111111000111001001110000010101111001110000111111110111000110101000000010111000111001000111111000000001001111110111010111000001000001111001111001110111111111000001001001001000000
00000000000000000000000000000000000000000000000000000000000000000000000000000000000000000000000000000000000000000000000000000000000000000000000000000000000000000000000000000000000000000000000000000000000000000000000000000000000000000000000000000000000000000000000000111001000000111111111111000000000000000111000001000111000000001000000001000000000000000000000000111000001000000001000000111000001111000000000000111001000000000001111001111000000000111000000000001000000000000000001111000001000000001000000000111000
00000000000000000000000000000000000000000000000000000000000000000000000000000000000000000000000000000000000000000000000000000000000000000000000000000000000000000000000000000000000000000000000000000000000000000000000000000000000000000000000000000000000000000000111111000001000001001000110001001000000001000001000010000001001111000001111001000010001110111001001111000000111110101111000111000000111110000111000000111000111110111000000000001000001001111001110000111001111000000111000001111001000111110001001000000111
00000000000000000000000000000000000000000000000000000000000000000000000000000000000000000000000000000000000000000000000000000000000000000000000000000000000000000000000000000000000000000000000000000000000000000000000000000000000000000000000000000000000000000000000011001011110001000001000010101000000110000001110001000110000111001001000000001000010000000001000001111111001001001110111001000000001001001010111000001000001001000111110001000111000111000010010000111000001110000001000000111000001001001001001111000001
00000000000000000000000000000000000000000000000000000000000000000000000000000000000000000000000000000000000000000000000000000000000000000000000000000000000000000000000000000000000000000000000000000000000000000000000000000000000000000000000000000000000000000000000000000000010000010111001111001010000001111110001111010010111111111000000001000000000111001101101000111000111111000111000000111001111111000111000001000001100001110001000000111000001001000000000110111000111001110000001000000110111111000110000001000001
00000000000000000000000000000000000000000000000000000000000000000000000000000000000000000000000000000000000000000000000000000000000000000000000000000000000000000000000000000000000000000000000000000000000000000000000000000000000000000000000000000000000000000000000001111001000001001001000001001000001010000000111001111000001000111111010000110000001110000000000110001010110111111001110000000010000000111001110111001001110000001000000111001110000001000000000111110000001001000111110001000001010001110000111110010111
00000000000000000000000000000000000000000000000000000000000000000000000000000000000000000000000000000000000000000000000000000000000000000000000000000000000000000000000000000000000000000000000000000000000000000000000000000000000000000000000000000000000000000000000101000111000111001110111001011010010011001111010010010010111111101110000111000011010010111001000110001000000000001111111001000110000000110000111010000010010111000000000000110001001000001101111111000010110000111001001010000111000001000010110111011111
00000000000000000000000000000000000000000000000000000000000000000000000000000000000000000000000000000000000000000000000000000000000000000000000000000000000000000000000000000000000000000000000000000000000000000000000000000000000000000000000000000000000000000000111000000000000000000000000000111000000000111000000000000001000000000001111000111000001000000111000001001000001000111001000001111001000000111000000000000000000000001111000000001000000000000001000000111000001111001000000000001111111000000000000000111000
00000000000000000000000000000000000000000000000000000000000000000000000000000000000000000000000000000000000000000000000000000000000000000000000000000000000000000000000000000000000000000000000000000000000000000000000000000000000000000000000000000000000000000000000111010111001001010001000000011010000000001111000001001001111110000110000110111000000001001101111110000001111000010000001101000001101111000000110000111001000111000111001000111110110111000111110000000111000001111111001010000111110000010111110001111010
00000000000000000000000000000000000000000000000000000000000000000000000000000000000000000000000000000000000000000000000000000000000000000000000000000000000000000000000000000000000000000000000000000000000000000000000000000000000000000000000000000000000000000000000111001000001010111001000000111000000001111001001111000001000111001010000111000000110110001000001000000000000111110110000111000011111000001001000001011000000111010001010000010001000111111010111000001001001000000000000110000000000000111000010000111000
00000000000000000000000000000000000000000000000000000000000000000000000000000000000000000000000000000000000000000000000000000000000000000000000000000000000000000000000000000000000000000000000000000000000000000000000000000000000000000000000000000000000000000000000000000000000000001000000000000000001001000000000000111000111000001000000001000000000000001000111111000001111000000001000000000000000000000000000111111000111001111000001000000000000000000000111000001000000111000001000001000000111001111001000001000000
00000000000000000000000000000000000000000000000000000000000000000000000000000000000000000000000000000000000000000000000000000000000000000000000000000000000000000000000000000000000000000000000000000000000000000000000000000000000000000000000000000000000000000000000001111000111111110001111110000000111010000000010110001001110000010000111001000110110001000001110110001001001111000111000111000001001001111010000111010110101000010001001001000001010001000001000010010001001000111001001100000111001111111110001000111111
00000000000000000000000000000000000000000000000000000000000000000000000000000000000000000000000000000000000000000000000000000000000000000000000000000000000000000000000000000000000000000000000000000000000000000000000000000000000000000000000000000000000000000000000110010000011001001111000001001111011101001001001001110110010000000011000001000001001000001000000111000000000000001000001001111110001000000111000101010000111111000010001111111010001001010000111001110001101000000111000000000000111000111010010001000001
00000000000000000000000000000000000000000000000000000000000000000000000000000000000000000000000000000000000000000000000000000000000000000000000000000000000000000000000000000000000000000000000000000000000000000000000000000000000000000000000000000000000000000000000000111010110001001000000000101000001110001001110001000111001001111001001000000010010000000111001111000111110000001110001000111110111110111111001001010000111111110111111000000000110111001000111000001111110000111111000000000110000000001000001000111001
00000000000000000000000000000000000000000000000000000000000000000000000000000000000000000000000000000000000000000000000000000000000000000000000000000000000000000000000000000000000000000000000000000000000000000000000000000000000000000000000000000000000000000000000000111001111111110000110000000001001001111001001001010001001000111000000001000110001001000111000000010010111000000010101000000111111110111110001001000001111001111000000111110010001000000111111000111000111000110111111111111001000111111001001000001000
00000000000000000000000000000000000000000000000000000000000000000000000000000000000000000000000000000000000000000000000000000000000000000000000000000000000000000000000000000000000000000000000000000000000000000000000000000000000000000000000000000000000000000000000111111001110111001001111000111010000001010001110001111000000000111111000111111001010111001001000010001001000101110111000111111000111111110111111001001001000111000000111110000110000111000000111001110001000111000111001001111111000111111000000001000000
00000000000000000000000000000000000000000000000000000000000000000000000000000000000000000000000000000000000000000000000000000000000000000000000000000000000000000000000000000000000000000000000000000000000000000000000000000000000000000000000000000000000000000000111000111000000001110000111000111111000000000111001111001111001101011001110001110110101110000111110111000110001111001101110001111001111111001000001000110000110110111001111110000010000000111001000110001000000000111000000111000001000000111001000001000000
00000000000000000000000000000000000000000000000000000000000000000000000000000000000000000000000000000000000000000000000000000000000000000000000000000000000000000000000000000000000000000000000000000000000000000000000000000000000000000000000000000000000000000000000111111101001000001000010111000111111010111111001101001000001001000000000001001000000000111001111000010000001000111001110010000111001010111001000000110110001001001000001111101110000010111101001000101000000001000111110110111010000111110000111101001110
00000000000000000000000000000000000000000000000000000000000000000000000000000000000000000000000000000000000000000000000000000000000000000000000000000000000000000000000000000000000000000000000000000000000000000000000000000000000000000000000000000000000000000000000000111001001001010111001111001110111111111110000110000111110001010000000000000111111110111111111001110111000000111110000000000010000001001011111000110000110111000000000111010000111000000010000111001000000001110000111000000001001000111111001000001000
00000000000000000000000000000000000000000000000000000000000000000000000000000000000000000000000000000000000000000000000000000000000000000000000000000000000000000000000000000000000000000000000000000000000000000000000000000000000000000000000000000000000000000000000001000001000000000000000000111000000110000000111001001000010000110000010111001010001101000000010001111001110111110000000110111110000110111110111001000001010001111111110000111101111000001000111001111111010110000000000001000000000110000001111110000111
00000000000000000000000000000000000000000000000000000000000000000000000000000000000000000000000000000000000000000000000000000000000000000000000000000000000000000000000000000000000000000000000000000000000000000000000000000000000000000000000000000000000000000000000000111000001000001000111110010000000111010001010000111000010001111001001001001010001111001111001010000000001101110000010000111110000111111110001111001001000000000001000001110001001011111110111001111000111000001000001001000000110111000001001111000000
00000000000000000000000000000000000000000000000000000000000000000000000000000000000000000000000000000000000000000000000000000000000000000000000000000000000000000000000000000000000000000000000000000000000000000000000000000000000000000000000000000000000000000000000000111010000000110111101001111010001111111000000001000000000101010001000000111110000000111110000000101000111111001000000110000010111101001000111000001010000111111001111110010001000001001010111000000001000001000000000000000000000001000001010001111001
00000000000000000000000000000000000000000000000000000000000000000000000000000000000000000000000000000000000000000000000000000000000000000000000000000000000000000000000000000000000000000000000000000000000000000000000000000000000000000000000000000000000000000000000111111000001001001000111001010000000000000000001111000010001000000001001010110111000111111111111110001010110111000001111000000001111111000000010111000001101000000000001000001001001010110000110000000001111001101000111001000001001111101001000111010110
00000000000000000000000000000000000000000000000000000000000000000000000000000000000000000000000000000000000000000000000000000000000000000000000000000000000000000000000000000000000000000000000000000000000000000000000000000000000000000000000000000000000000000000111001000000110001111010111000001111111001110000000000001001111010001000111001010000000110000001000001000110111001111000110001000010001001001000110111000001010001000000110000000111111000000001001110000001111001110000101001111000000000110000001111001111
00000000000000000000000000000000000000000000000000000000000000000000000000000000000000000000000000000000000000000000000000000000000000000000000000000000000000000000000000000000000000000000000000000000000000000000000000000000000000000000000000000000000000000000000100000001000000000000111001000111001000001001000010001000001110000001010111101001110110000010010101010010110100110000000110000001111110000000001110000000010110001111000111010000001010100010111000111010010001001000111001000001001111000010000001010001
00000000000000000000000000000000000000000000000000000000000000000000000000000000000000000000000000000000000000000000000000000000000000000000000000000000000000000000000000000000000000000000000000000000000000000000000000000000000000000000000000000000000000000000000111001001000000111000000000111111000000001111000000111000111000000111000000000000000000000001001000000000000000000000111000000000001111000000111111001000000000000001000111000000000000000000000000000000001000111000001000000111000001000000000000000000
00000000000000000000000000000000000000000000000000000000000000000000000000000000000000000000000000000000000000000000000000000000000000000000000000000000000000000000000000000000000000000000000000000000000000000000000000000000000000000000000000000000000000000000000111000110000111110111000001000001001000000001000001111101001000010001111111111000101001000000000000111101000000001000000000000111010111001001001111001111000000010010000000000001000111000000000111001000000000111111001110000000111010001000000000110001
00000000000000000000000000000000000000000000000000000000000000000000000000000000000000000000000000000000000000000000000000000000000000000000000000000000000000000000000000000000000000000000000000000000000000000000000000000000000000000000000000000000000000000000000000001000111000001111001111000001001000000111000111000111110000010111001110111101101000000110000110111111111010011000000111000001000010000010111000000111000101111110001000111000111111010111000000111111000001000000000111111111000111000111110001111001
00000000000000000000000000000000000000000000000000000000000000000000000000000000000000000000000000000000000000000000000000000000000000000000000000000000000000000000000000000000000000000000000000000000000000000000000000000000000000000000000000000000000000000000000000000001000000000000000000000000000000000000000000001111000000000000111000001000000000000111000111000000000000111000001000001000001111000111000000000000000001000000000000000000001000000000001000111001001000001001000001000111000000001000000000000000
00000000000000000000000000000000000000000000000000000000000000000000000000000000000000000000000000000000000000000000000000000000000000000000000000000000000000000000000000000000000000000000000000000000000000000000000000000000000000000000000000000000000000000000000000001000000111000000000000111111000000000000111000000000000000000000000000000001000000000001000111000111000111000000000000000000000000000111000000111111000111000001000000000000001000000001000000001001001000111001000001000001001111000000000000000000
00000000000000000000000000000000000000000000000000000000000000000000000000000000000000000000000000000000000000000000000000000000000000000000000000000000000000000000000000000000000000000000000000000000000000000000000000000000000000000000000000000000000000000000000001111001110000101000000001110000111000110111000001000111110001010000000111001001010001000000111000111000000001001110110000111000000001001000101000001000010001111111111001000000111111111010001111000000001000111111111000111000000111111000001000111010
00000000000000000000000000000000000000000000000000000000000000000000000000000000000000000000000000000000000000000000000000000000000000000000000000000000000000000000000000000000000000000000000000000000000000000000000000000000000000000000000000000000000000000000000110101101000101001000000110111000111001111000010111000001000000000001000010000001111111110010000111010001000111111111000000000000001001110000001000000110000000001001000111000001001111110101001000110000001110110000110001000111111110111000001110111110
00000000000000000000000000000000000000000000000000000000000000000000000000000000000000000000000000000000000000000000000000000000000000000000000000000000000000000000000000000000000000000000000000000000000000000000000000000000000000000000000000000000000000000000000000000001000111111000001000001000000111111111010111010010001000110110001010010001010101000111001001010001110001000000110000111110110110000101000010110010000001110000111110110111001001001110101000001010000001000000001001000010001000110000000000001110
00000000000000000000000000000000000000000000000000000000000000000000000000000000000000000000000000000000000000000000000000000000000000000000000000000000000000000000000000000000000000000000000000000000000000000000000000000000000000000000000000000000000000000000000000111000000000000000000000000000111000001111000111000010000000000001000000111000001110000000111111111111111111110110110000000011000000010000000000110000111000111000001111000001010000000001111101110010000001111111111001000001000000101001001110001111
00000000000000000000000000000000000000000000000000000000000000000000000000000000000000000000000000000000000000000000000000000000000000000000000000000000000000000000000000000000000000000000000000000000000000000000000000000000000000000000000000000000000000000000000001001001101111110001000001110010111001111001000000010001111111001111000010111111000001000110001000001001001000001001001111000001111111111110000001010110111000111111110000000000111000001001001010001001001101000111001111111001111001001000001010000001
00000000000000000000000000000000000000000000000000000000000000000000000000000000000000000000000000000000000000000000000000000000000000000000000000000000000000000000000000000000000000000000000000000000000000000000000000000000000000000000000000000000000000000000111001001001001000001001001111001000111001111111000100010000110000111111001111000000001000000000110010001001111001111000000000000000000000110000111001001001000010001000000000111101111001001110000010111111000001000000111001000001001110111111110110000000
00000000000000000000000000000000000000000000000000000000000000000000000000000000000000000000000000000000000000000000000000000000000000000000000000000000000000000000000000000000000000000000000000000000000000000000000000000000000000000000000000000000000000000000000000111000000001010111000001111001111000111111001110000000000010000000000111000000000111111001110000001111001000001100000010000001010001000010010111111000100001111111001001000000111111001000001110010001111001110000000110111110111000000111000000000000
00000000000000000000000000000000000000000000000000000000000000000000000000000000000000000000000000000000000000000000000000000000000000000000000000000000000000000000000000000000000000000000000000000000000000000000000000000000000000000000000000000000000000000000000001111001110000110000110000000001001001110111001000001111110001010111000000010001001001000111110000111111000000001111111000000001001001111000110000110000111001000000000111000000110000000001001000001111000110110000111110000111111111001110000001111000
00000000000000000000000000000000000000000000000000000000000000000000000000000000000000000000000000000000000000000000000000000000000000000000000000000000000000000000000000000000000000000000000000000000000000000000000000000000000000000000000000000000000000000000000000001111111110110000000111000111000000000000010001001111000000010001000000010000111000000001000111000000001001111000001000000111010000001000000000000110000000000000001001000001001101111000000001000111001110000111000111000001101000010001001111110001
00000000000000000000000000000000000000000000000000000000000000000000000000000000000000000000000000000000000000000000000000000000000000000000000000000000000000000000000000000000000000000000000000000000000000000000000000000000000000000000000000000000000000000000000001001010010010000111001001010110001110000111001111000111000000000000111001001110001000000111000111000111101000001000000001000000111010001000010111101000111000110110000000001000000111000000110110111000000001000000000000000001001000000010010111000000
00000000000000000000000000000000000000000000000000000000000000000000000000000000000000000000000000000000000000000000000000000000000000000000000000000000000000000000000000000000000000000000000000000000000000000000000000000000000000000000000000000000000000000000000110010110001011010111011111001001010111111001111111110101110000000110001111111111101010001101001000110111000111001010011110000000000111111010110000010000111110000111010111000000111001001111001001000110111010001000000011111000001001010000000000000001
00000000000000000000000000000000000000000000000000000000000000000000000000000000000000000000000000000000000000000000000000000000000000000000000000000000000000000000000000000000000000000000000000000000000000000000000000000000000000000000000000000000000000000000000001111011000010011000001001001111000110001111110000111111111000000000010000000001001000010001111111111000111000000001000101001001001111001010101110110011111110001111001111010111111000010010111001001000000001000000000010000001010001000001111000000001
00000000000000000000000000000000000000000000000000000000000000000000000000000000000000000000000000000000000000000000000000000000000000000000000000000000000000000000000000000000000000000000000000000000000000000000000000000000000000000000000000000000000000000000000000111010001000000110010010111001010110111000001001000111000110000000001000111000000001000000111000001010001000000111111001000111111000110000001111110001000111111000000000000010001010001000000110001111111111000111001001111111010001001010000000001001
00000000000000000000000000000000000000000000000000000000000000000000000000000000000000000000000000000000000000000000000000000000000000000000000000000000000000000000000000000000000000000000000000000000000000000000000000000000000000000000000000000000000000000000000000000100111001001001001000001000101010000111010000011000001111110110010101001000111001000110010000001000111111110001111111000001111001000111111000001000010001001000001000110101000001111110000010101111001000000000111111000001000111111111110111111000
00000000000000000000000000000000000000000000000000000000000000000000000000000000000000000000000000000000000000000000000000000000000000000000000000000000000000000000000000000000000000000000000000000000000000000000000000000000000000000000000000000000000000000000000001001000011001110001111000001000001000001111010110111000001001010001110001001111001000000001111001000000111001000000000010111111001001111001010000000000111001001000010010111001010101000111111110010000110001111111010111111000111001111001000001111010
00000000000000000000000000000000000000000000000000000000000000000000000000000000000000000000000000000000000000000000000000000000000000000000000000000000000000000000000000000000000000000000000000000000000000000000000000000000000000000000000000000000000000000000000110000100010001010111001110001000000000010010000111111000111000111000000110000000101000110000001101000000000111111000010000111001010001111001001111001110111111001001011001110001111001001110111001001001110010000000111110000000000000001110001000000001
00000000000000000000000000000000000000000000000000000000000000000000000000000000000000000000000000000000000000000000000000000000000000000000000000000000000000000000000000000000000000000000000000000000000000000000000000000000000000000000000000000000000000000000000001000001110000000001001000001010000000000000000001010001110001000111001110010001001000111110001000000001001001001001001110111111001000111111101001010111000010001111111010111111111111000111000000111111001111000001000110000000000111001111000000111010
00000000000000000000000000000000000000000000000000000000000000000000000000000000000000000000000000000000000000000000000000000000000000000000000000000000000000000000000000000000000000000000000000000000000000000000000000000000000000000000000000000000000000000000000000000000000000000000001111000111001000000000001000000111000000111000000000000111000001001111000000000001111001000000000000000000000111000000000000001000000000000111000000001001000000000000000000000000000000000000001000000000000111000000000001000000
00000000000000000000000000000000000000000000000000000000000000000000000000000000000000000000000000000000000000000000000000000000000000000000000000000000000000000000000000000000000000000000000000000000000000000000000000000000000000000000000000000000000000000000111010001000000000001110010000001110001100000000111001000110010001111111111111000111000000000010000010100110010001001001001001000100001001000001000010111000010001101110111000111111101110000000111111010110010111001111010000111000000000010111110000111111
00000000000000000000000000000000000000000000000000000000000000000000000000000000000000000000000000000000000000000000000000000000000000000000000000000000000000000000000000000000000000000000000000000000000000000000000000000000000000000000000000000000000000000000111010001001001010001000000001111110001101001001111001000110010000000010000000000000001110001001001001110110000001111110001001111001110111111001000000001001000111111000110000000000001111001010110000000110000111000111000001000001001000001001001111000000
00000000000000000000000000000000000000000000000000000000000000000000000000000000000000000000000000000000000000000000000000000000000000000000000000000000000000000000000000000000000000000000000000000000000000000000000000000000000000000000000000000000000000000000000000000001000000000000000111001000000111000000000001000000000111000000000000111000111001000000001000000000000000000000000000000111000000000000000000000000001000000000000000111000111000111000000000001000001000111001001000111000111111001001000001001111
